10111011000101111111011111011111101010000000111000110110110000110100000111001000000010101100000111110000000011110011011010111000
00100101111000001010101101011010111000011111001011001000000110101011000101000000111011001111100011011100001110000100000100100111
11011010001011101110110000001110101101010010101000101000010000000100011111110100001110111110101100011001101010110101010000110101
10111011110100011100110011010011000001011101000100110011010001111111010000110100000001011110011001000111101100001100111010111110
11100101110110111110001111010010110011110010111011010001111000010000110101001001001010101110011111010011110100110100100101001110
00001111111010101110001100000100110010010000110100001001110011010000010100001000000110101100111111111101110111001010111000100011
00001100110001000001100011100100111001111010111010101101001001000001111001001101000110000011000011000011111010111010010010111101
00011010001000100001010110110101110111000101010100110001001011110101010001000101000000010000101111101100100111100110100111000101
00101110110100111100101011110010110000000000111100111001001001111101110011110001001111001011011111100011010100001100111010110010
10100001010001000101000000000100101110100000101000011100000110000010111011010110000110010011101000010011001011110000011000000011
11011011110100001100100111110101110010001011110111100101000110100010100010101011110101111011111100110011010110101011000001011001
10110100000000001101000110111111101100010010001100111001110000100010010000101100001000011101000010111001010110100100000110100101
11100110111001000001010011001111011000100011011111001010101101110000100111011111110101100000110001010001000000101101111111101001
10011010111100011010111000101011001010100100100000100001000101011100111111011000000000100001010110111010110000000000111110100001
11010110100111001100101000010010001000110110001101001100001011110001010100100010110001100010001000001010010000100100001111110010
00110000101011011101001100110101001100011110110110011100111011010000011101101100111010110100001101101000001101100010011111100110
11111001010000101111111001001111010011000000110000111110110101011101001011100110111111101111100100100110111110110010110011001000
11000111110000010011010011100001110111100000000000011001110001100001101000100010000110111111000000100110110110000000010111010111
01010001000000110000110011100010001110110101010111000000010111011001110100001100101110111110110011101010110111100011010001010011
00000111000000011110101000111101111000101101011100000011001011100000011111100010111101111110010011111001010111001011010010101000
00011001111111010000101100011001100111110010011011001010111100010000000011111001111100100001111100100010010001100000111011010011
00110111001111111100110001010111010010011110000111101000111110111110101010101000000010101011001010010001010111001111011000011101
00000011110101110001001111100110000001101001101001100010000101101010000101101110101000000011100110010011001010111010011011111110
00010011110011101001010100110011101101110001001001111101111111000000110011010101101100011111010010110000001110010010101111111011
00101010001010010010001011011011101100001100100010111011101101010100001100111110010010000001110100011101000101111111110110100010
00110001000100010001010011100111101011101011111100000111000011001011111101100100000000000110011100110011101111101100110000101001
11010110100110111111101100001111011000010000000011000010110110100101000111011001100100110100101111100101111001101111100100100101
00001101110100000110000100000011001000110000101110110100101011000011101110011110110100111011001011101101010101110000010110100111
00000100110110101010010111000011111000100000000111011111101101110010001100010011000001100001100101100001010001111101000101001000
01000101010100110100011100010000010101000010001010110110110011000001011011111011110111010001100000100011000000111011101011001101
01010100010010001110111000101010111100010000111100111110001111011101111000000001001100111111001111010101000000000101001001100010
00011100110111000001011111000100010110001010011110011110111000000100000110011000000001011101111111101011010011111010010101010011
11110010001110001110010000000010010000101111101010100111000011011001111100011110111010101010111011000011001100011001110111010000
11001010111111100010110000001010000001000000010001001100000110010001000000001110111110111111000010111010110110011111100001101010
11101111001101110101101111011001110001000001000111000110001111000010100011011010010000010101100010010111101010111100110110100000
00000010010011101001111011000101001100111101011011000110000011010010111111111100001010110000100101001100111100101101101001101010
11011111000011000011101111100111111110100100011011011111101111110010110101010111110001111010001001010010111000110011000010111000
11100100001010111110000010100010111001001010010011101100111010101111110100101001000111111100011011110110110010101010011101100000
00011101010001001110011100001001111000011101000011001011001110001111101100010101110000101011110100100101100011110010111000010010
00001111101101110100011111101110101001011110100000110000110110111101001011001110110100010011100111101001100001100010100000110011
11111000111110110010110001001101110010010011000110100000000011010110001001000111011010011111110111100011111101110100011100101000
10100111000111011110100000110110010000111111100110101010101110110010111100100000010001100000100001101110111010110000001111000110
00100010111001010100101011011011100111001011110000001101100011100001001011000011000011110101001110110001110110000000010000001100
00110010110011111111010111110000101010111111111001011111110101101110000010011100001001101001011000100001001011110011010100101010
11011001110010100000100100001111001111101111110011111111110100010000001100001001010100101110100100100001110101111101000111011111
11110011001110001001101001000000010010000000111001001011111010010100111101000001101011000101110111101100001100111101011111000111
11010011110111101011110111010001011000110010110101000011010010101011101010110001110100001101111101100011010000001100110100100000
00111011100010100101011111000101100100110000100110111101011000010000000111010101011001101101000111000011010010111111011100110101
11111111111110010000011000100001010101010000010000100111011100010000010110110101101011110011001110010101001100000001101000001101
00110101000100000011101110111111111010110000111100110000111010001010101011111010000001101101111111101101001000011001100100011101
00010000010101001011010000010000000010011000000100101000100111110000011000010111110101110100001011110010110111100010111101011011
01110001101001011010110010110100100110011101101110011110111111101101010101000101010001111010010011000001000110010010110000000010
11111011111001001100100000111101101111000011010010101000100011100010100011110100001111000001100001001101110001100011100011010010
01010000000000011110010101001010100110011110011101101100001100110001100111111110110111000010110100100100001001110110110010111001
00000001101111111010010011100111111011111100100100111100011010101000001110010100000100110010110111011001000111001011001100101110
00111010110100010101101100001000110011111011010011101110000010101111101100110000110111000000101001000101010000100100011100010000
00110001011000000101111111101110101100001100000111000010111000010010110111001111001001010101010111000010111111111011010001011010
00001010001001110110100001010100010011011111111010101000111001010010110100111101111010011011000010111101111100101111000110110100
00010011111000101101110011101111111010001101001000000111110010011110100111000111000000110011111011010010100110100010010000010100
00001110011001000011011011010010011010110010000011000101110010101110011000010000100101111110011010111000101000111010100101010111
