memory_initialization_radix=2;
memory_initialization_vector=
01110101011110001000101001001110010010110111000101100110100010001000101001010011001101100101001010111100100011000100110111011000,
00111111011110111010011110100110010000101100101010010110010100110110111001110101011100010111000111000001011110010101011010111011,
01110101011000001010001000100110010001111010110001100110011010100100101101111011111000100110001111000001100110111100001010011111,
00111010010010100011101101011001100001110111111010001111001011000100000110011110011010110011111110000011010110111011100110100101,
01101101011100110110111010111011101100010111101000010000100000000010000101011000100101100100010100111101010111111001010111000101,
01100001010101000100111010010000110010010111100110110101101010100110101001001111001010001100000100111011100101010011110110001001,
01111001101000010110111010011111100011111000000010000111110001001011010111010100011111101000000001001011101011001001110100111100,
01000100110000100100100100111000101110110101010001111100101110101001101101110000010100010101011001011110010100100111100101000010,
01101111101010101001011001011111001010101100010011000101011000110011010110111101010101111101001000111011011010000011111100111110,
01001100110000101000010101101000010111011001111010010100100001010110111010010000011110111010110011010011110011110111110010001100,
10111101100000011001010110100001010010000011010110101001011000011010001110010100010110110100011101001010011001010011011100110011,
01010111010110101010111101011000101100010101100000100110010011101000111110001011101110001010011010101111010110111100001010101110,
01011000001110111001111101001010010011101100011101111011110011100110111001001000001111001000110111010000011111001001100001110010,
10111101100111000101000001110101011111111000010111001100101010001110010101011100100100000110000011001110100011001010110101100010,
01111001010100111010010001101101110100100110000111010110100110011000111110010101001001001011110001100011100111101010111010111111,
11010110010000000111101101100111011001000110000110100111011000111001101101100110100100101101001110110110001101000111100110110001,
00111110101001110101101101111101011110110011010000110110011011101000011110001010011101111011111100100111110111100110001010010000,
10010110101011101100111101110101001110000110110011011001100110010101111001000100101011011011010100110100100010001100010100100110,
10010010001001111010000001111011001001010111001010011010011011111000000000101110011010111010011000110111011110101010100001100101,
11000111001101011000100101001001110001110010001001101110100110111100101001110101100010110101010101101100010111110101001001101110,
01111011100101100111100100111011001101100101101101100101011100001100101010100011011011011001111010001110001000101110100001010011,
10001100010011100100001010010101101001100100110101011110100111011001101110011011010110010011011001010001010011000111010001011111,
00111111100010000010011010111110100010001010100101101110101010001010010101011011011110011101110101010110011011101000101110110000,
01110010100001111000100101101111101010000110010010100010110110010111000110100010110110100110110011001100010110100011110011100100,
01010111110000011001100101011100110110010111000001111001001110101110011111011001011101111001100001001111100001001010110011011011,
01001010100011101001000010001101100110001100000010100001100111010100100001111100110100110101001000101110100110010101110110110101,
10100000011000010110101101000010110011011000011101101000101000110101100010011000010010101001111010110111101111100010001010100011,
10110001010000111110000010100100010100000111001010100111101111101011101101100000100011011000010101101110010001100011100010000011,
01111010100110000110101110010111010110001100001101100110010101000111110110010011100100000011011101100111010011000100010101110110,
10110111100001111000111001110100000110111010101100111100000111010110111001001101011101000100101001101101100011100110010111000010,
01101011100011011000011011001011001100010111110001011100001110010100111001100111100010110011101000100001100100010110111100101000,
01001000011011001101101110111000000010010100011010010110011000111010101001101100100001011010111011001110100011000101001011000111,
01100100011011000110001011011100100000101010001010100011011101110110010010011011001011000011000001100011001011111100100101100010,
01100110101100000110101001111111001011101010011010011010110100101010111001010110011000010101111001100100110010101010110001111101,
01110011010101010111111100111010110101101001101011011110010100011100000101101101011101100110101111001110101001011001101001111001,
10010101101010010110011010011000110010110110101010010101101111101010010100101100100000011000011101111010011011100110011001110000,
10001001010110101000001101101010110010001010011001101001001110000101001101001110010001100110000010110110101010001011011010000101,
10111011011001011101111010001010001011111100011010111110100100100010111001011110010001100110110101010110010100100110010111011010,
01011110011100101001101010001001101110000111001101100111011111110100111010000101110100110100111010101111001010111000100101011000,
01100110011011100101000010100100001000110100101001110000011011000010010001101010010101111001011010001001111010101001110101011100,
01111110011110101101111111000010110011100111001010001111100000000010100001100000010110010010000110101101011100110100010101111000,
01001110101001010100111110011011001111110110110000100000010101111000001110111100000100011011110101111011011010101000111001001011,
10010110110010000101011110011010010110101001101110000100110010001011010011010100010110001001100101110110100110010100011100110111,
10011000011110010011111001011010110101011011010001100010100111101011101010100101110111011001110110110010100111100111001101100000,
10100100101000111010000011000110101110011100010101111101011000001100010111001110100101001011100101101110110001010001111010011011,
01000110001011110100110010101011101001100110101101110010110001111010100110100110100011011001110111011011001100110101101001111100,
00110100100001100100100100100111001100110110000001101111011101010101000001110100100101101000101101111000010000011100011101010010,
10101100101001110110000101111000110001111010110010100010010101010111101110110111100000110100011000110111011101000110000100010111,
10010111011001111010011101100011110000001010110101100111011011000000101100000000110101010101100110011011100100100110100010110011,
10101110010001100111110011000100110110011010011110100010010100001000110101111101011000101000110101100011101001110010101001000000,
10010010011010110101110001001010000101100111000101100111011011111010000001011101101110000111101110000010010001001000101101111001,
10010001010001001100111101110000100101101101000001111011000111011000110110001101011000110111110101001011011011110111001101101111,
10001011011111011010111001001100010000001001011111101011100000010111100001011000101000001100100101111011101001110011010011001010,
01010010010111010011101001100011010000001000111010100100011101101010100111000110100001100100011010011110010100011100110101111111,
10000110010001001010000001110010101000011001011110100010010011111001001110011100100110011011010101110100101000100111111011001101,
01111000011010000010100111001000010010000101100101111101001100100010111010010110010111010101110000011111100111101100101000100001,
01110001101001001010011101100110101101010111110101000111011011110010011100011011011010010001111110001101101101011000011001110100,
01001000111111111100001001100110110111001010110010011001011100101001111010001010100110001011101101101100011111110110000010000100,
01111000011001000011001100111000001110011101011000111010010110011011100001101110011111100111010011010110001010011101110001100000,
01000100100111000111110001011011101010001000101010101001111000101001011000111110100001000101001010101001011110110010010111001001,
